TRT-8401-EntropyCalibration2
data: 3f7a5a34
resnetv17_batchnorm0_fwd: 3ea31296
resnetv17_relu0_fwd: 3e99c5ed
resnetv17_pool0_fwd: 3e99c5ed
resnetv17_stage1_batchnorm0_fwd: 3f2d1e1c
resnetv17_stage1_relu0_fwd: 3dc50642
resnetv17_stage1_batchnorm1_fwd: 3e58611e
resnetv17_stage1_relu1_fwd: 3e58f070
resnetv17_stage1_batchnorm2_fwd: 3e83e1ff
resnetv17_stage1_batchnorm3_fwd: 3ed283f6
resnetv17_stage1__plus0: 3f367f10
resnetv17_stage1_activation0: 3e3b5c0b
resnetv17_stage1_batchnorm4_fwd: 3e10234a
resnetv17_stage1_relu2_fwd: 3de8b1ca
resnetv17_stage1_batchnorm5_fwd: 3eb6f0c2
resnetv17_stage1_relu3_fwd: 3eb6f0c2
resnetv17_stage1_batchnorm6_fwd: 3ebdede2
resnetv17_stage1__plus1: 3eccb572
resnetv17_stage1_activation1: 3ebdd5c9
resnetv17_stage1_batchnorm7_fwd: 3e8ee6fd
resnetv17_stage1_relu4_fwd: 3e8ee6fd
resnetv17_stage1_batchnorm8_fwd: 3fc705f4
resnetv17_stage1_relu5_fwd: 3fc705f4
resnetv17_stage1_batchnorm9_fwd: 3fa2f17c
resnetv17_stage1__plus2: 3fa31a6b
resnetv17_stage1_activation2: 3f36f64a
resnetv17_stage2_batchnorm0_fwd: 3ed3e432
resnetv17_stage2_relu0_fwd: 3f16acd6
resnetv17_stage2_batchnorm1_fwd: 3f969abf
resnetv17_stage2_relu1_fwd: 3f8e2a8e
resnetv17_stage2_batchnorm2_fwd: 3f527905
resnetv17_stage2_batchnorm3_fwd: 3f4a2efb
resnetv17_stage2__plus0: 3fb2b927
resnetv17_stage2_activation0: 3edd2c0b
resnetv17_stage2_batchnorm4_fwd: 3e86788a
resnetv17_stage2_relu2_fwd: 3e3635fb
resnetv17_stage2_batchnorm5_fwd: 3ec303e6
resnetv17_stage2_relu3_fwd: 3f0f407e
resnetv17_stage2_batchnorm6_fwd: 3eed125b
resnetv17_stage2__plus1: 3f241ab6
resnetv17_stage2_activation1: 3ed9599e
resnetv17_stage2_batchnorm7_fwd: 3eb60389
resnetv17_stage2_relu4_fwd: 3dd45993
resnetv17_stage2_batchnorm8_fwd: 3deae831
resnetv17_stage2_relu5_fwd: 3da43259
resnetv17_stage2_batchnorm9_fwd: 3daa7a9b
resnetv17_stage2__plus2: 3ecec4ad
resnetv17_stage2_activation2: 3f19c15b
resnetv17_stage2_batchnorm10_fwd: 3edbc07e
resnetv17_stage2_relu6_fwd: 3e0bf933
resnetv17_stage2_batchnorm11_fwd: 3dc1d345
resnetv17_stage2_relu7_fwd: 3dc29f53
resnetv17_stage2_batchnorm12_fwd: 3da97803
resnetv17_stage2__plus3: 3eb75282
resnetv17_stage2_activation3: 3ecdd447
resnetv17_stage3_batchnorm0_fwd: 3e769143
resnetv17_stage3_relu0_fwd: 3e6cb648
resnetv17_stage3_batchnorm1_fwd: 3e84105e
resnetv17_stage3_relu1_fwd: 3e839b33
resnetv17_stage3_batchnorm2_fwd: 3e462032
resnetv17_stage3_batchnorm3_fwd: 3e8377a4
resnetv17_stage3__plus0: 3eccb5a5
resnetv17_stage3_activation0: 3e84bf4e
resnetv17_stage3_batchnorm4_fwd: 3e8ce39b
resnetv17_stage3_relu2_fwd: 3e680fe3
resnetv17_stage3_batchnorm5_fwd: 3f32bf88
resnetv17_stage3_relu3_fwd: 3f32bf88
resnetv17_stage3_batchnorm6_fwd: 3f87267f
resnetv17_stage3__plus1: 3f87267f
resnetv17_stage3_activation1: 3f0d1769
resnetv17_stage3_batchnorm7_fwd: 3e9d42f3
resnetv17_stage3_relu4_fwd: 3e973131
resnetv17_stage3_batchnorm8_fwd: 3f54cb0b
resnetv17_stage3_relu5_fwd: 3f58e333
resnetv17_stage3_batchnorm9_fwd: 3f310a8b
resnetv17_stage3__plus2: 3ef1b00a
resnetv17_stage3_activation2: 3ec5b479
resnetv17_stage3_batchnorm10_fwd: 3e326c8f
resnetv17_stage3_relu6_fwd: 3dc7fd83
resnetv17_stage3_batchnorm11_fwd: 3e22e617
resnetv17_stage3_relu7_fwd: 3daf4cb6
resnetv17_stage3_batchnorm12_fwd: 3d89d31e
resnetv17_stage3__plus3: 3eac9b35
resnetv17_stage3_activation3: 3eb5c68e
resnetv17_stage3_batchnorm13_fwd: 3e4483ad
resnetv17_stage3_relu8_fwd: 3de14c09
resnetv17_stage3_batchnorm14_fwd: 3e327546
resnetv17_stage3_relu9_fwd: 3e249fc7
resnetv17_stage3_batchnorm15_fwd: 3e15b3d3
resnetv17_stage3__plus4: 3eb402e5
resnetv17_stage3_activation4: 3eb402e5
resnetv17_stage3_batchnorm16_fwd: 3e84db89
resnetv17_stage3_relu10_fwd: 3e206ba1
resnetv17_stage3_batchnorm17_fwd: 3e1485d4
resnetv17_stage3_relu11_fwd: 3e153c51
resnetv17_stage3_batchnorm18_fwd: 3e2a8757
resnetv17_stage3__plus5: 3eb58d56
resnetv17_stage3_activation5: 3eb58d56
resnetv17_stage4_batchnorm0_fwd: 3e9f8ba7
resnetv17_stage4_relu0_fwd: 3e3cb122
resnetv17_stage4_batchnorm1_fwd: 3e4dde44
resnetv17_stage4_relu1_fwd: 3e188b36
resnetv17_stage4_batchnorm2_fwd: 3e4f452e
resnetv17_stage4_batchnorm3_fwd: 3ed082de
resnetv17_stage4__plus0: 3ee34269
resnetv17_stage4_activation0: 3eeda556
resnetv17_stage4_batchnorm4_fwd: 3f0225f4
resnetv17_stage4_relu2_fwd: 3e7dece9
resnetv17_stage4_batchnorm5_fwd: 3e37a956
resnetv17_stage4_relu3_fwd: 3e2518ae
resnetv17_stage4_batchnorm6_fwd: 3e90cf48
resnetv17_stage4__plus1: 3f138baf
resnetv17_stage4_activation1: 3f133501
resnetv17_stage4_batchnorm7_fwd: 3e630156
resnetv17_stage4_relu4_fwd: 3e0bdb3c
resnetv17_stage4_batchnorm8_fwd: 3e5c045b
resnetv17_stage4_relu5_fwd: 3e1a58f2
resnetv17_stage4_batchnorm9_fwd: 3f6469b5
resnetv17_stage4__plus2: 3f921e4d
resnetv17_stage4_activation2: 3fadabef
resnetv17_pool1_fwd: 3f1f5c30
resnetv17_dense0_fwd: 3fb4055d
